#include "mysin_model_data.h"
alignas(16) const unsigned char g_mysin_model_data[] = {
  0x1c, 0x00, 0x00, 0x00, 0x54, 0x46, 0x4c, 0x33, 0x14, 0x00, 0x20, 0x00,
  0x1c, 0x00, 0x18, 0x00, 0x14, 0x00, 0x10, 0x00, 0x0c, 0x00, 0x00, 0x00,
  0x08, 0x00, 0x04, 0x00, 0x14, 0x00, 0x00, 0x00, 0x1c, 0x00, 0x00, 0x00,
  0x98, 0x00, 0x00, 0x00, 0xf0, 0x00, 0x00, 0x00, 0x14, 0x07, 0x00, 0x00,
  0x24, 0x07, 0x00, 0x00, 0x60, 0x0c, 0x00, 0x00, 0x03, 0x00, 0x00, 0x00,
  0x01, 0x00, 0x00, 0x00, 0x10, 0x00, 0x00, 0x00, 0x00, 0x00, 0x0a, 0x00,
  0x10, 0x00, 0x0c, 0x00, 0x08, 0x00, 0x04, 0x00, 0x0a, 0x00, 0x00, 0x00,
  0x0c, 0x00, 0x00, 0x00, 0x1c, 0x00, 0x00, 0x00, 0x3c, 0x00, 0x00, 0x00,
  0x0f, 0x00, 0x00, 0x00, 0x73, 0x65, 0x72, 0x76, 0x69, 0x6e, 0x67, 0x5f,
  0x64, 0x65, 0x66, 0x61, 0x75, 0x6c, 0x74, 0x00, 0x01, 0x00, 0x00, 0x00,
  0x04, 0x00, 0x00, 0x00, 0x90, 0xff, 0xff, 0xff, 0x09, 0x00, 0x00, 0x00,
  0x04, 0x00, 0x00, 0x00, 0x08, 0x00, 0x00, 0x00, 0x6f, 0x75, 0x74, 0x70,
  0x75, 0x74, 0x5f, 0x30, 0x00, 0x00, 0x00, 0x00, 0x01, 0x00, 0x00, 0x00,
  0x04, 0x00, 0x00, 0x00, 0xba, 0xf9, 0xff, 0xff, 0x04, 0x00, 0x00, 0x00,
  0x0c, 0x00, 0x00, 0x00, 0x6b, 0x65, 0x72, 0x61, 0x73, 0x5f, 0x74, 0x65,
  0x6e, 0x73, 0x6f, 0x72, 0x00, 0x00, 0x00, 0x00, 0x02, 0x00, 0x00, 0x00,
  0x34, 0x00, 0x00, 0x00, 0x04, 0x00, 0x00, 0x00, 0xdc, 0xff, 0xff, 0xff,
  0x0c, 0x00, 0x00, 0x00, 0x04, 0x00, 0x00, 0x00, 0x13, 0x00, 0x00, 0x00,
  0x43, 0x4f, 0x4e, 0x56, 0x45, 0x52, 0x53, 0x49, 0x4f, 0x4e, 0x5f, 0x4d,
  0x45, 0x54, 0x41, 0x44, 0x41, 0x54, 0x41, 0x00, 0x08, 0x00, 0x0c, 0x00,
  0x08, 0x00, 0x04, 0x00, 0x08, 0x00, 0x00, 0x00, 0x0b, 0x00, 0x00, 0x00,
  0x04, 0x00, 0x00, 0x00, 0x13, 0x00, 0x00, 0x00, 0x6d, 0x69, 0x6e, 0x5f,
  0x72, 0x75, 0x6e, 0x74, 0x69, 0x6d, 0x65, 0x5f, 0x76, 0x65, 0x72, 0x73,
  0x69, 0x6f, 0x6e, 0x00, 0x0d, 0x00, 0x00, 0x00, 0x20, 0x06, 0x00, 0x00,
  0x18, 0x06, 0x00, 0x00, 0xc8, 0x05, 0x00, 0x00, 0xac, 0x05, 0x00, 0x00,
  0x5c, 0x05, 0x00, 0x00, 0x4c, 0x01, 0x00, 0x00, 0xfc, 0x00, 0x00, 0x00,
  0xac, 0x00, 0x00, 0x00, 0xa4, 0x00, 0x00, 0x00, 0x9c, 0x00, 0x00, 0x00,
  0x94, 0x00, 0x00, 0x00, 0x74, 0x00, 0x00, 0x00, 0x04, 0x00, 0x00, 0x00,
  0x6a, 0xfa, 0xff, 0xff, 0x04, 0x00, 0x00, 0x00, 0x60, 0x00, 0x00, 0x00,
  0x10, 0x00, 0x00, 0x00, 0x00, 0x00, 0x00, 0x00, 0x08, 0x00, 0x0e, 0x00,
  0x08, 0x00, 0x04, 0x00, 0x08, 0x00, 0x00, 0x00, 0x10, 0x00, 0x00, 0x00,
  0x24, 0x00, 0x00, 0x00, 0x00, 0x00, 0x06, 0x00, 0x08, 0x00, 0x04, 0x00,
  0x06, 0x00, 0x00, 0x00, 0x04, 0x00, 0x00, 0x00, 0x00, 0x00, 0x00, 0x00,
  0x0c, 0x00, 0x18, 0x00, 0x14, 0x00, 0x10, 0x00, 0x0c, 0x00, 0x04, 0x00,
  0x0c, 0x00, 0x00, 0x00, 0x07, 0xfb, 0xf7, 0xe3, 0x6d, 0xe7, 0x01, 0x38,
  0x02, 0x00, 0x00, 0x00, 0x02, 0x00, 0x00, 0x00, 0x04, 0x00, 0x00, 0x00,
  0x06, 0x00, 0x00, 0x00, 0x32, 0x2e, 0x32, 0x31, 0x2e, 0x30, 0x00, 0x00,
  0xd6, 0xfa, 0xff, 0xff, 0x04, 0x00, 0x00, 0x00, 0x10, 0x00, 0x00, 0x00,
  0x31, 0x2e, 0x35, 0x2e, 0x30, 0x00, 0x00, 0x00, 0x00, 0x00, 0x00, 0x00,
  0x00, 0x00, 0x00, 0x00, 0x7c, 0xf5, 0xff, 0xff, 0x80, 0xf5, 0xff, 0xff,
  0x84, 0xf5, 0xff, 0xff, 0xfe, 0xfa, 0xff, 0xff, 0x04, 0x00, 0x00, 0x00,
  0x40, 0x00, 0x00, 0x00, 0x00, 0x00, 0x00, 0x00, 0x00, 0x00, 0x00, 0x00,
  0x00, 0x00, 0x00, 0x00, 0x73, 0x40, 0x44, 0xbf, 0xfb, 0x05, 0x1c, 0x3f,
  0x00, 0x00, 0x00, 0x00, 0xcb, 0xe1, 0x6b, 0xbf, 0x00, 0x00, 0x00, 0x00,
  0xf7, 0xb6, 0x50, 0x3f, 0x00, 0x00, 0x00, 0x00, 0x8d, 0xf2, 0xc1, 0x3f,
  0xbd, 0x19, 0xb5, 0x3e, 0x63, 0x91, 0xb8, 0xbe, 0x00, 0x00, 0x00, 0x00,
  0xa6, 0xfd, 0x31, 0x3f, 0x98, 0xd4, 0xb7, 0xbf, 0x4a, 0xfb, 0xff, 0xff,
  0x04, 0x00, 0x00, 0x00, 0x40, 0x00, 0x00, 0x00, 0x35, 0x40, 0x91, 0xbe,
  0xee, 0x34, 0x1d, 0xbe, 0x3a, 0x94, 0xbd, 0xbe, 0xca, 0x82, 0x2e, 0x3f,
  0x9a, 0x03, 0xd1, 0x3e, 0xa0, 0x37, 0xeb, 0xbe, 0x20, 0x94, 0x05, 0x3f,
  0xa0, 0x73, 0x3e, 0xbe, 0x10, 0x36, 0xbf, 0x3e, 0xf2, 0x56, 0xe6, 0xbe,
  0x0e, 0x1e, 0x50, 0xbd, 0x11, 0xa0, 0x8a, 0x3e, 0x5a, 0x42, 0x33, 0x3e,
  0x65, 0x39, 0x13, 0xbf, 0xb8, 0xd7, 0x95, 0xbd, 0xc0, 0xd0, 0x1d, 0x3f,
  0x96, 0xfb, 0xff, 0xff, 0x04, 0x00, 0x00, 0x00, 0x00, 0x04, 0x00, 0x00,
  0xc8, 0x3e, 0x24, 0xbe, 0x5b, 0x3b, 0xae, 0x3e, 0xe7, 0xaf, 0xda, 0x3e,
  0x9f, 0x8b, 0xea, 0xbe, 0x27, 0x67, 0xaa, 0xbd, 0x96, 0x4c, 0x98, 0xbe,
  0xaa, 0x41, 0xe1, 0xbe, 0x9e, 0x1a, 0xb5, 0xbe, 0xb7, 0x59, 0x0b, 0x3f,
  0xf6, 0x9d, 0x13, 0x3e, 0xf6, 0xb0, 0x1d, 0x3f, 0xf5, 0x3e, 0x55, 0xbe,
  0xe6, 0xe2, 0x26, 0xbf, 0x08, 0x2a, 0x67, 0xbe, 0x8d, 0xc3, 0x4e, 0x3e,
  0x79, 0x58, 0x01, 0xbf, 0x90, 0x33, 0x35, 0x3d, 0xdf, 0xbd, 0xc7, 0x3e,
  0xb5, 0xe4, 0xd9, 0xbe, 0xbe, 0x9d, 0x78, 0x3e, 0xe2, 0xff, 0xa8, 0xbe,
  0x49, 0x25, 0x88, 0x3e, 0xb8, 0x19, 0x18, 0xbe, 0x42, 0x12, 0xc0, 0xbe,
  0x36, 0x06, 0x2b, 0xbe, 0xac, 0x00, 0xf1, 0x3d, 0xfa, 0x5e, 0x14, 0xbe,
  0x4b, 0x06, 0xb5, 0x3e, 0x72, 0x58, 0xb3, 0xbe, 0x8e, 0xcd, 0x04, 0x3e,
  0x82, 0xac, 0x8d, 0xbe, 0xc4, 0xa1, 0x6d, 0xbe, 0xf6, 0xf6, 0x32, 0x3e,
  0xc9, 0xe0, 0x6e, 0xbe, 0x63, 0xd6, 0x9f, 0xbe, 0xd3, 0xae, 0xac, 0x3e,
  0xa0, 0x7d, 0x75, 0x3d, 0xb9, 0x1c, 0xc9, 0xbe, 0x50, 0x50, 0xa7, 0xbc,
  0x3e, 0x6a, 0x3e, 0x3e, 0x31, 0x1b, 0x9f, 0xbe, 0xc8, 0x1c, 0xb2, 0xbd,
  0x88, 0xc4, 0x36, 0x3d, 0x80, 0x39, 0x37, 0xbb, 0x90, 0x1a, 0x74, 0x3d,
  0x58, 0x17, 0x1e, 0xbe, 0x71, 0x1c, 0xd4, 0xbe, 0x14, 0x9e, 0x8c, 0xbe,
  0xce, 0x7a, 0x0a, 0x3e, 0x52, 0x61, 0x68, 0x3e, 0x08, 0x1b, 0x3a, 0xbe,
  0x1c, 0xc5, 0x83, 0xbe, 0xa2, 0x7d, 0xb7, 0x3d, 0xb2, 0xed, 0x57, 0xbe,
  0xaa, 0x82, 0x6f, 0x3e, 0xb4, 0x43, 0xe9, 0x3d, 0xa0, 0x4f, 0xdb, 0xbe,
  0x0c, 0x26, 0xad, 0x3d, 0x8f, 0xf2, 0xd5, 0xbd, 0xf6, 0x4e, 0xc6, 0x3e,
  0x94, 0x95, 0xb2, 0x3d, 0xe8, 0x9a, 0x44, 0x3d, 0x11, 0x6d, 0x1f, 0x3e,
  0xd6, 0xbf, 0xf0, 0x3d, 0x56, 0x7b, 0x35, 0xbe, 0x2a, 0x8f, 0x33, 0xbe,
  0x3e, 0xc1, 0x24, 0x3e, 0xc8, 0x2b, 0x90, 0xbe, 0x1b, 0x44, 0xb4, 0x3e,
  0x69, 0x7c, 0x8e, 0x3e, 0x50, 0xa8, 0xc0, 0xbd, 0xe4, 0x7a, 0xd7, 0xbd,
  0x33, 0x26, 0x17, 0xbe, 0x05, 0x1a, 0x9b, 0x3e, 0xe7, 0x22, 0xc9, 0xbd,
  0xd9, 0x37, 0xb8, 0xbd, 0x04, 0xa4, 0xab, 0xbd, 0x62, 0x8a, 0x1c, 0x3e,
  0xf5, 0x01, 0x12, 0x3d, 0xe2, 0xd9, 0x1d, 0xbe, 0x8c, 0xff, 0xb3, 0x3d,
  0x8e, 0x95, 0xbe, 0xbe, 0xc0, 0xa8, 0x84, 0x3d, 0x75, 0xc3, 0xa0, 0xbe,
  0x4f, 0xe5, 0x53, 0xbe, 0xd4, 0xa6, 0x86, 0xbe, 0xcb, 0x53, 0x8f, 0x3e,
  0xff, 0x5a, 0x70, 0xbe, 0xa0, 0x84, 0xb9, 0xbe, 0x80, 0xfc, 0x06, 0xbe,
  0xb1, 0x91, 0x6b, 0x3e, 0xcc, 0x3e, 0x8f, 0xbe, 0x88, 0x95, 0x68, 0xbd,
  0xae, 0x8b, 0x11, 0x3e, 0xd2, 0x84, 0xe9, 0x3e, 0xa5, 0x27, 0x51, 0xbe,
  0x59, 0x3a, 0xb5, 0xbe, 0x19, 0x81, 0xdb, 0x3e, 0x14, 0x61, 0xef, 0x3d,
  0xec, 0xf0, 0x94, 0xbe, 0x28, 0x71, 0x88, 0xbe, 0xd1, 0xe5, 0xc1, 0xbe,
  0xff, 0x26, 0xc4, 0x3e, 0x28, 0xd2, 0x3f, 0xbe, 0x51, 0x06, 0xc4, 0xbe,
  0xd2, 0xfb, 0x6f, 0x3e, 0x16, 0x28, 0x26, 0x3e, 0x33, 0xe0, 0x9d, 0x3e,
  0xa0, 0x5e, 0x9d, 0x3c, 0xae, 0xcd, 0x12, 0x3e, 0xe0, 0x8f, 0xc9, 0xbe,
  0xb2, 0xdb, 0xa2, 0xbe, 0x31, 0x6b, 0x9d, 0x3e, 0x08, 0x35, 0x87, 0xbd,
  0x5e, 0x57, 0x01, 0x3e, 0x1c, 0x03, 0xf0, 0xbd, 0xd2, 0x34, 0xb9, 0x3d,
  0xba, 0x39, 0xbb, 0xbe, 0x17, 0x84, 0x19, 0xbf, 0xd8, 0x56, 0x97, 0xbd,
  0xfc, 0xca, 0xde, 0x3e, 0xa0, 0xac, 0x37, 0x3d, 0x84, 0x06, 0x14, 0x3f,
  0x43, 0x43, 0x35, 0x3d, 0x9c, 0xcb, 0x2d, 0x3c, 0x45, 0xf2, 0x71, 0xbe,
  0x62, 0x45, 0x7b, 0x3f, 0x0a, 0x0b, 0xff, 0xbe, 0x1a, 0xc7, 0x0d, 0x3e,
  0x90, 0xf0, 0x97, 0xbd, 0x96, 0x1b, 0x5a, 0x3e, 0x9f, 0x35, 0x7f, 0xbe,
  0xc5, 0xe4, 0xbb, 0xbe, 0x12, 0x63, 0x7f, 0x3e, 0x72, 0x86, 0x9f, 0xbe,
  0xfa, 0x01, 0xab, 0xbe, 0xbc, 0x73, 0x28, 0x3e, 0x84, 0x79, 0x8d, 0x3d,
  0x6b, 0x95, 0x05, 0xbe, 0x02, 0x65, 0x88, 0xbe, 0x04, 0xf6, 0xa2, 0x3d,
  0x26, 0x69, 0x07, 0x3e, 0x01, 0xea, 0xbf, 0xbe, 0xd7, 0x3b, 0x5a, 0xbe,
  0x26, 0xcd, 0xbf, 0xbe, 0xc4, 0x72, 0x0a, 0xbe, 0xe9, 0x5c, 0xb8, 0x3e,
  0x1b, 0x19, 0x7d, 0xbe, 0x92, 0x19, 0x51, 0xbf, 0xcf, 0xdf, 0xb7, 0xbe,
  0x71, 0xfe, 0x84, 0xbd, 0x2c, 0x3e, 0xe3, 0x3d, 0x70, 0x99, 0x15, 0x3f,
  0xc4, 0xf0, 0xb1, 0x3d, 0x63, 0x58, 0xad, 0x3e, 0xa5, 0x65, 0xb7, 0xbe,
  0x07, 0xf7, 0x82, 0x3f, 0xa0, 0x62, 0xb2, 0xbc, 0xe3, 0xcb, 0xa7, 0xbe,
  0x77, 0x15, 0xa1, 0x3d, 0x7f, 0x63, 0x9e, 0x3e, 0x17, 0x01, 0xa5, 0x3e,
  0x3e, 0x91, 0x37, 0x3e, 0x7c, 0x6f, 0x8f, 0xbd, 0x6f, 0x6a, 0x61, 0xbf,
  0x08, 0x30, 0xaf, 0xbe, 0xbb, 0x2f, 0xc9, 0x3d, 0x70, 0xff, 0xf5, 0x3c,
  0x30, 0x00, 0x38, 0x3e, 0x12, 0x84, 0x12, 0x3e, 0x77, 0x15, 0x88, 0x3e,
  0x41, 0x6a, 0x35, 0x3e, 0x28, 0x2a, 0x62, 0xbe, 0x02, 0xe4, 0x65, 0x3e,
  0x6d, 0x62, 0x6d, 0x3d, 0x50, 0x3e, 0xa1, 0x3d, 0xe8, 0x59, 0x0c, 0xbe,
  0xdf, 0xa2, 0xae, 0x3e, 0x7e, 0xa9, 0x83, 0xbe, 0x49, 0x60, 0x7c, 0xbe,
  0xb2, 0x7f, 0xea, 0x3e, 0xa8, 0x48, 0xcb, 0xbe, 0x5c, 0x31, 0xf7, 0xbd,
  0x78, 0x23, 0x54, 0x3d, 0x8e, 0xf1, 0x6c, 0xbe, 0x29, 0xf3, 0xaf, 0x3e,
  0x95, 0xda, 0x04, 0x3f, 0x3d, 0x40, 0x7e, 0x3e, 0x44, 0x21, 0x14, 0xbe,
  0xae, 0x50, 0x5d, 0xbe, 0x8e, 0x19, 0x11, 0x3f, 0x28, 0x31, 0xd3, 0xbe,
  0x90, 0xc8, 0x5e, 0xbe, 0x0c, 0x09, 0xd3, 0xbe, 0xec, 0x36, 0x91, 0xbe,
  0x6a, 0x39, 0xe8, 0xbe, 0x22, 0xdb, 0xec, 0x3e, 0x6b, 0x11, 0xc8, 0xbe,
  0xc4, 0x0f, 0x22, 0xbf, 0x00, 0x44, 0x7d, 0xbb, 0xd7, 0xf8, 0x3f, 0x3e,
  0x3c, 0xcb, 0x93, 0xbd, 0x63, 0x2d, 0x00, 0x3f, 0x2c, 0x6a, 0x11, 0x3e,
  0x7b, 0xf7, 0xff, 0x3c, 0xb8, 0xd5, 0x40, 0xbe, 0xe2, 0x53, 0x0b, 0x3e,
  0xc1, 0x86, 0xdd, 0xbe, 0x34, 0x83, 0xf3, 0x3d, 0xd1, 0x38, 0x9b, 0x3e,
  0x80, 0x43, 0x4d, 0x3d, 0xc2, 0x0d, 0xb0, 0xbe, 0x05, 0x9e, 0x83, 0xbe,
  0xf2, 0x65, 0x00, 0x3e, 0x81, 0xff, 0x27, 0xbe, 0x40, 0x8e, 0xdc, 0xbc,
  0xb1, 0xc8, 0x51, 0x3c, 0xe8, 0x97, 0x95, 0xbd, 0x82, 0x4c, 0x5b, 0x3e,
  0xf0, 0x06, 0xd6, 0xbd, 0x7c, 0x1d, 0x81, 0xbd, 0xa4, 0xa7, 0x38, 0xbe,
  0x06, 0xcf, 0x9f, 0xbe, 0xf6, 0x93, 0x15, 0xbd, 0xce, 0x4f, 0x68, 0xbe,
  0x5d, 0x67, 0xd8, 0x3e, 0x46, 0x39, 0xaa, 0xbe, 0x64, 0x4c, 0x8a, 0xbe,
  0x1e, 0x2c, 0xb4, 0x3e, 0x49, 0xf5, 0x88, 0x3e, 0xdb, 0xbb, 0x0b, 0xbe,
  0x5a, 0x96, 0x21, 0xbe, 0x3e, 0xe4, 0xe7, 0x3c, 0x88, 0xea, 0x36, 0x3d,
  0x01, 0xd6, 0x13, 0x3f, 0x7b, 0x35, 0xc4, 0x3e, 0xaa, 0x77, 0xdb, 0xbe,
  0x27, 0xd6, 0xd7, 0xbe, 0xc4, 0x75, 0x2e, 0x3f, 0x68, 0xa4, 0x28, 0xbf,
  0x9f, 0xd3, 0xbf, 0x3e, 0x42, 0xb8, 0x89, 0xbe, 0xef, 0x7a, 0x81, 0x3e,
  0x72, 0x4a, 0x70, 0x3c, 0x57, 0xff, 0x9b, 0x3e, 0xaa, 0x63, 0x34, 0xbe,
  0xe7, 0xe9, 0xc2, 0xbe, 0x05, 0x48, 0xa1, 0x3e, 0xab, 0xb0, 0xe2, 0xbe,
  0x40, 0xeb, 0xb9, 0x3c, 0x7b, 0xc9, 0x82, 0xbe, 0xb9, 0x30, 0x81, 0x3e,
  0x5e, 0xf6, 0x8e, 0x3d, 0x97, 0xaf, 0xc5, 0x3e, 0x03, 0x77, 0x9a, 0xbe,
  0x13, 0x62, 0x7e, 0x3e, 0xa2, 0xff, 0xff, 0xff, 0x04, 0x00, 0x00, 0x00,
  0x40, 0x00, 0x00, 0x00, 0xc9, 0x9c, 0x7c, 0x3f, 0xee, 0x68, 0xa9, 0x3e,
  0x6e, 0xad, 0x10, 0x3f, 0x11, 0x23, 0xbe, 0x3d, 0x7e, 0x2c, 0xaa, 0x3e,
  0x46, 0xad, 0x75, 0xbf, 0x80, 0x47, 0xe7, 0x3c, 0xaa, 0x16, 0x20, 0xbf,
  0x71, 0x9d, 0xd9, 0x3c, 0xb0, 0xc4, 0x46, 0xbf, 0x1d, 0x7e, 0x6a, 0xbf,
  0x7e, 0x87, 0xa8, 0xbe, 0xc0, 0x83, 0xa4, 0x3f, 0xf1, 0x4e, 0xd6, 0x3e,
  0x5c, 0x44, 0x07, 0xbf, 0xc2, 0x24, 0xc7, 0x3e, 0xee, 0xff, 0xff, 0xff,
  0x04, 0x00, 0x00, 0x00, 0x04, 0x00, 0x00, 0x00, 0xb3, 0x1a, 0x47, 0xbd,
  0x00, 0x00, 0x06, 0x00, 0x08, 0x00, 0x04, 0x00, 0x06, 0x00, 0x00, 0x00,
  0x04, 0x00, 0x00, 0x00, 0x40, 0x00, 0x00, 0x00, 0x98, 0x94, 0x29, 0x3f,
  0x00, 0x00, 0x00, 0x00, 0x00, 0x00, 0x00, 0x00, 0x29, 0x63, 0x83, 0xbc,
  0x63, 0x2a, 0xdd, 0xbc, 0x3d, 0x48, 0xaf, 0x3d, 0x00, 0x00, 0x00, 0x00,
  0xa2, 0x71, 0xc2, 0x3e, 0x9b, 0xa6, 0x1c, 0xbd, 0x73, 0x96, 0x09, 0x3f,
  0x44, 0x0d, 0x88, 0x3e, 0xf3, 0xbe, 0x9a, 0x3e, 0x4d, 0xad, 0xd1, 0x3e,
  0x5b, 0x86, 0x0f, 0xbe, 0x18, 0x85, 0xc0, 0x3e, 0xee, 0x03, 0x71, 0xbc,
  0xdc, 0xfa, 0xff, 0xff, 0xe0, 0xfa, 0xff, 0xff, 0x0f, 0x00, 0x00, 0x00,
  0x4d, 0x4c, 0x49, 0x52, 0x20, 0x43, 0x6f, 0x6e, 0x76, 0x65, 0x72, 0x74,
  0x65, 0x64, 0x2e, 0x00, 0x01, 0x00, 0x00, 0x00, 0x14, 0x00, 0x00, 0x00,
  0x00, 0x00, 0x0e, 0x00, 0x18, 0x00, 0x14, 0x00, 0x10, 0x00, 0x0c, 0x00,
  0x08, 0x00, 0x04, 0x00, 0x0e, 0x00, 0x00, 0x00, 0x14, 0x00, 0x00, 0x00,
  0x1c, 0x00, 0x00, 0x00, 0xe8, 0x00, 0x00, 0x00, 0xec, 0x00, 0x00, 0x00,
  0xf0, 0x00, 0x00, 0x00, 0x04, 0x00, 0x00, 0x00, 0x6d, 0x61, 0x69, 0x6e,
  0x00, 0x00, 0x00, 0x00, 0x03, 0x00, 0x00, 0x00, 0x90, 0x00, 0x00, 0x00,
  0x48, 0x00, 0x00, 0x00, 0x04, 0x00, 0x00, 0x00, 0xce, 0xff, 0xff, 0xff,
  0x10, 0x00, 0x00, 0x00, 0x00, 0x00, 0x00, 0x08, 0x0c, 0x00, 0x00, 0x00,
  0x10, 0x00, 0x00, 0x00, 0x58, 0xfb, 0xff, 0xff, 0x01, 0x00, 0x00, 0x00,
  0x09, 0x00, 0x00, 0x00, 0x03, 0x00, 0x00, 0x00, 0x08, 0x00, 0x00, 0x00,
  0x03, 0x00, 0x00, 0x00, 0x02, 0x00, 0x00, 0x00, 0x00, 0x00, 0x0e, 0x00,
  0x14, 0x00, 0x00, 0x00, 0x10, 0x00, 0x0c, 0x00, 0x0b, 0x00, 0x04, 0x00,
  0x0e, 0x00, 0x00, 0x00, 0x10, 0x00, 0x00, 0x00, 0x00, 0x00, 0x00, 0x08,
  0x10, 0x00, 0x00, 0x00, 0x14, 0x00, 0x00, 0x00, 0xba, 0xff, 0xff, 0xff,
  0x00, 0x00, 0x00, 0x01, 0x01, 0x00, 0x00, 0x00, 0x08, 0x00, 0x00, 0x00,
  0x03, 0x00, 0x00, 0x00, 0x07, 0x00, 0x00, 0x00, 0x04, 0x00, 0x00, 0x00,
  0x01, 0x00, 0x00, 0x00, 0x00, 0x00, 0x0e, 0x00, 0x16, 0x00, 0x00, 0x00,
  0x10, 0x00, 0x0c, 0x00, 0x0b, 0x00, 0x04, 0x00, 0x0e, 0x00, 0x00, 0x00,
  0x18, 0x00, 0x00, 0x00, 0x00, 0x00, 0x00, 0x08, 0x18, 0x00, 0x00, 0x00,
  0x1c, 0x00, 0x00, 0x00, 0x00, 0x00, 0x06, 0x00, 0x08, 0x00, 0x07, 0x00,
  0x06, 0x00, 0x00, 0x00, 0x00, 0x00, 0x00, 0x01, 0x01, 0x00, 0x00, 0x00,
  0x07, 0x00, 0x00, 0x00, 0x03, 0x00, 0x00, 0x00, 0x00, 0x00, 0x00, 0x00,
  0x05, 0x00, 0x00, 0x00, 0x06, 0x00, 0x00, 0x00, 0x01, 0x00, 0x00, 0x00,
  0x09, 0x00, 0x00, 0x00, 0x01, 0x00, 0x00, 0x00, 0x00, 0x00, 0x00, 0x00,
  0x0a, 0x00, 0x00, 0x00, 0xc0, 0x03, 0x00, 0x00, 0x40, 0x03, 0x00, 0x00,
  0xe0, 0x02, 0x00, 0x00, 0x90, 0x02, 0x00, 0x00, 0x40, 0x02, 0x00, 0x00,
  0xf4, 0x01, 0x00, 0x00, 0x90, 0x01, 0x00, 0x00, 0xfc, 0x00, 0x00, 0x00,
  0x60, 0x00, 0x00, 0x00, 0x04, 0x00, 0x00, 0x00, 0x7e, 0xfc, 0xff, 0xff,
  0x00, 0x00, 0x00, 0x01, 0x14, 0x00, 0x00, 0x00, 0x1c, 0x00, 0x00, 0x00,
  0x1c, 0x00, 0x00, 0x00, 0x0a, 0x00, 0x00, 0x00, 0x34, 0x00, 0x00, 0x00,
  0x02, 0x00, 0x00, 0x00, 0xff, 0xff, 0xff, 0xff, 0x01, 0x00, 0x00, 0x00,
  0x68, 0xfc, 0xff, 0xff, 0x1b, 0x00, 0x00, 0x00, 0x53, 0x74, 0x61, 0x74,
  0x65, 0x66, 0x75, 0x6c, 0x50, 0x61, 0x72, 0x74, 0x69, 0x74, 0x69, 0x6f,
  0x6e, 0x65, 0x64, 0x43, 0x61, 0x6c, 0x6c, 0x5f, 0x31, 0x3a, 0x30, 0x00,
  0x02, 0x00, 0x00, 0x00, 0x01, 0x00, 0x00, 0x00, 0x01, 0x00, 0x00, 0x00,
  0xd6, 0xfc, 0xff, 0xff, 0x00, 0x00, 0x00, 0x01, 0x14, 0x00, 0x00, 0x00,
  0x1c, 0x00, 0x00, 0x00, 0x1c, 0x00, 0x00, 0x00, 0x09, 0x00, 0x00, 0x00,
  0x74, 0x00, 0x00, 0x00, 0x02, 0x00, 0x00, 0x00, 0xff, 0xff, 0xff, 0xff,
  0x10, 0x00, 0x00, 0x00, 0xc0, 0xfc, 0xff, 0xff, 0x58, 0x00, 0x00, 0x00,
  0x73, 0x65, 0x71, 0x75, 0x65, 0x6e, 0x74, 0x69, 0x61, 0x6c, 0x5f, 0x31,
  0x2f, 0x64, 0x65, 0x6e, 0x73, 0x65, 0x5f, 0x31, 0x5f, 0x32, 0x2f, 0x4d,
  0x61, 0x74, 0x4d, 0x75, 0x6c, 0x3b, 0x73, 0x65, 0x71, 0x75, 0x65, 0x6e,
  0x74, 0x69, 0x61, 0x6c, 0x5f, 0x31, 0x2f, 0x64, 0x65, 0x6e, 0x73, 0x65,
  0x5f, 0x31, 0x5f, 0x32, 0x2f, 0x52, 0x65, 0x6c, 0x75, 0x3b, 0x73, 0x65,
  0x71, 0x75, 0x65, 0x6e, 0x74, 0x69, 0x61, 0x6c, 0x5f, 0x31, 0x2f, 0x64,
  0x65, 0x6e, 0x73, 0x65, 0x5f, 0x31, 0x5f, 0x32, 0x2f, 0x42, 0x69, 0x61,
  0x73, 0x41, 0x64, 0x64, 0x00, 0x00, 0x00, 0x00, 0x02, 0x00, 0x00, 0x00,
  0x01, 0x00, 0x00, 0x00, 0x10, 0x00, 0x00, 0x00, 0x6e, 0xfd, 0xff, 0xff,
  0x00, 0x00, 0x00, 0x01, 0x14, 0x00, 0x00, 0x00, 0x1c, 0x00, 0x00, 0x00,
  0x1c, 0x00, 0x00, 0x00, 0x08, 0x00, 0x00, 0x00, 0x6c, 0x00, 0x00, 0x00,
  0x02, 0x00, 0x00, 0x00, 0xff, 0xff, 0xff, 0xff, 0x10, 0x00, 0x00, 0x00,
  0x58, 0xfd, 0xff, 0xff, 0x52, 0x00, 0x00, 0x00, 0x73, 0x65, 0x71, 0x75,
  0x65, 0x6e, 0x74, 0x69, 0x61, 0x6c, 0x5f, 0x31, 0x2f, 0x64, 0x65, 0x6e,
  0x73, 0x65, 0x5f, 0x31, 0x2f, 0x4d, 0x61, 0x74, 0x4d, 0x75, 0x6c, 0x3b,
  0x73, 0x65, 0x71, 0x75, 0x65, 0x6e, 0x74, 0x69, 0x61, 0x6c, 0x5f, 0x31,
  0x2f, 0x64, 0x65, 0x6e, 0x73, 0x65, 0x5f, 0x31, 0x2f, 0x52, 0x65, 0x6c,
  0x75, 0x3b, 0x73, 0x65, 0x71, 0x75, 0x65, 0x6e, 0x74, 0x69, 0x61, 0x6c,
  0x5f, 0x31, 0x2f, 0x64, 0x65, 0x6e, 0x73, 0x65, 0x5f, 0x31, 0x2f, 0x42,
  0x69, 0x61, 0x73, 0x41, 0x64, 0x64, 0x00, 0x00, 0x02, 0x00, 0x00, 0x00,
  0x01, 0x00, 0x00, 0x00, 0x10, 0x00, 0x00, 0x00, 0x7a, 0xfe, 0xff, 0xff,
  0x00, 0x00, 0x00, 0x01, 0x10, 0x00, 0x00, 0x00, 0x10, 0x00, 0x00, 0x00,
  0x07, 0x00, 0x00, 0x00, 0x44, 0x00, 0x00, 0x00, 0xd8, 0xfd, 0xff, 0xff,
  0x36, 0x00, 0x00, 0x00, 0x73, 0x65, 0x71, 0x75, 0x65, 0x6e, 0x74, 0x69,
  0x61, 0x6c, 0x5f, 0x31, 0x2f, 0x64, 0x65, 0x6e, 0x73, 0x65, 0x5f, 0x31,
  0x2f, 0x52, 0x65, 0x6c, 0x75, 0x3b, 0x73, 0x65, 0x71, 0x75, 0x65, 0x6e,
  0x74, 0x69, 0x61, 0x6c, 0x5f, 0x31, 0x2f, 0x64, 0x65, 0x6e, 0x73, 0x65,
  0x5f, 0x31, 0x2f, 0x42, 0x69, 0x61, 0x73, 0x41, 0x64, 0x64, 0x00, 0x00,
  0x01, 0x00, 0x00, 0x00, 0x10, 0x00, 0x00, 0x00, 0xda, 0xfe, 0xff, 0xff,
  0x00, 0x00, 0x00, 0x01, 0x10, 0x00, 0x00, 0x00, 0x10, 0x00, 0x00, 0x00,
  0x06, 0x00, 0x00, 0x00, 0x28, 0x00, 0x00, 0x00, 0x38, 0xfe, 0xff, 0xff,
  0x1b, 0x00, 0x00, 0x00, 0x73, 0x65, 0x71, 0x75, 0x65, 0x6e, 0x74, 0x69,
  0x61, 0x6c, 0x5f, 0x31, 0x2f, 0x64, 0x65, 0x6e, 0x73, 0x65, 0x5f, 0x31,
  0x2f, 0x4d, 0x61, 0x74, 0x4d, 0x75, 0x6c, 0x00, 0x02, 0x00, 0x00, 0x00,
  0x10, 0x00, 0x00, 0x00, 0x01, 0x00, 0x00, 0x00, 0x22, 0xff, 0xff, 0xff,
  0x00, 0x00, 0x00, 0x01, 0x10, 0x00, 0x00, 0x00, 0x10, 0x00, 0x00, 0x00,
  0x05, 0x00, 0x00, 0x00, 0x2c, 0x00, 0x00, 0x00, 0x80, 0xfe, 0xff, 0xff,
  0x1d, 0x00, 0x00, 0x00, 0x73, 0x65, 0x71, 0x75, 0x65, 0x6e, 0x74, 0x69,
  0x61, 0x6c, 0x5f, 0x31, 0x2f, 0x64, 0x65, 0x6e, 0x73, 0x65, 0x5f, 0x31,
  0x5f, 0x32, 0x2f, 0x4d, 0x61, 0x74, 0x4d, 0x75, 0x6c, 0x00, 0x00, 0x00,
  0x02, 0x00, 0x00, 0x00, 0x10, 0x00, 0x00, 0x00, 0x10, 0x00, 0x00, 0x00,
  0x6e, 0xff, 0xff, 0xff, 0x00, 0x00, 0x00, 0x01, 0x10, 0x00, 0x00, 0x00,
  0x10, 0x00, 0x00, 0x00, 0x04, 0x00, 0x00, 0x00, 0x2c, 0x00, 0x00, 0x00,
  0xcc, 0xfe, 0xff, 0xff, 0x1d, 0x00, 0x00, 0x00, 0x73, 0x65, 0x71, 0x75,
  0x65, 0x6e, 0x74, 0x69, 0x61, 0x6c, 0x5f, 0x31, 0x2f, 0x64, 0x65, 0x6e,
  0x73, 0x65, 0x5f, 0x32, 0x5f, 0x31, 0x2f, 0x4d, 0x61, 0x74, 0x4d, 0x75,
  0x6c, 0x00, 0x00, 0x00, 0x02, 0x00, 0x00, 0x00, 0x01, 0x00, 0x00, 0x00,
  0x10, 0x00, 0x00, 0x00, 0xba, 0xff, 0xff, 0xff, 0x00, 0x00, 0x00, 0x01,
  0x10, 0x00, 0x00, 0x00, 0x10, 0x00, 0x00, 0x00, 0x03, 0x00, 0x00, 0x00,
  0x28, 0x00, 0x00, 0x00, 0x18, 0xff, 0xff, 0xff, 0x1a, 0x00, 0x00, 0x00,
  0x73, 0x65, 0x71, 0x75, 0x65, 0x6e, 0x74, 0x69, 0x61, 0x6c, 0x5f, 0x31,
  0x2f, 0x64, 0x65, 0x6e, 0x73, 0x65, 0x5f, 0x32, 0x5f, 0x31, 0x2f, 0x41,
  0x64, 0x64, 0x00, 0x00, 0x01, 0x00, 0x00, 0x00, 0x01, 0x00, 0x00, 0x00,
  0x00, 0x00, 0x16, 0x00, 0x18, 0x00, 0x14, 0x00, 0x00, 0x00, 0x10, 0x00,
  0x0c, 0x00, 0x08, 0x00, 0x00, 0x00, 0x00, 0x00, 0x00, 0x00, 0x07, 0x00,
  0x16, 0x00, 0x00, 0x00, 0x00, 0x00, 0x00, 0x01, 0x10, 0x00, 0x00, 0x00,
  0x10, 0x00, 0x00, 0x00, 0x02, 0x00, 0x00, 0x00, 0x48, 0x00, 0x00, 0x00,
  0x74, 0xff, 0xff, 0xff, 0x3a, 0x00, 0x00, 0x00, 0x73, 0x65, 0x71, 0x75,
  0x65, 0x6e, 0x74, 0x69, 0x61, 0x6c, 0x5f, 0x31, 0x2f, 0x64, 0x65, 0x6e,
  0x73, 0x65, 0x5f, 0x31, 0x5f, 0x32, 0x2f, 0x52, 0x65, 0x6c, 0x75, 0x3b,
  0x73, 0x65, 0x71, 0x75, 0x65, 0x6e, 0x74, 0x69, 0x61, 0x6c, 0x5f, 0x31,
  0x2f, 0x64, 0x65, 0x6e, 0x73, 0x65, 0x5f, 0x31, 0x5f, 0x32, 0x2f, 0x42,
  0x69, 0x61, 0x73, 0x41, 0x64, 0x64, 0x00, 0x00, 0x01, 0x00, 0x00, 0x00,
  0x10, 0x00, 0x00, 0x00, 0x00, 0x00, 0x16, 0x00, 0x1c, 0x00, 0x18, 0x00,
  0x00, 0x00, 0x14, 0x00, 0x10, 0x00, 0x0c, 0x00, 0x00, 0x00, 0x00, 0x00,
  0x08, 0x00, 0x07, 0x00, 0x16, 0x00, 0x00, 0x00, 0x00, 0x00, 0x00, 0x01,
  0x14, 0x00, 0x00, 0x00, 0x20, 0x00, 0x00, 0x00, 0x20, 0x00, 0x00, 0x00,
  0x01, 0x00, 0x00, 0x00, 0x3c, 0x00, 0x00, 0x00, 0x02, 0x00, 0x00, 0x00,
  0xff, 0xff, 0xff, 0xff, 0x01, 0x00, 0x00, 0x00, 0x04, 0x00, 0x04, 0x00,
  0x04, 0x00, 0x00, 0x00, 0x1e, 0x00, 0x00, 0x00, 0x73, 0x65, 0x72, 0x76,
  0x69, 0x6e, 0x67, 0x5f, 0x64, 0x65, 0x66, 0x61, 0x75, 0x6c, 0x74, 0x5f,
  0x6b, 0x65, 0x72, 0x61, 0x73, 0x5f, 0x74, 0x65, 0x6e, 0x73, 0x6f, 0x72,
  0x3a, 0x30, 0x00, 0x00, 0x02, 0x00, 0x00, 0x00, 0x01, 0x00, 0x00, 0x00,
  0x01, 0x00, 0x00, 0x00, 0x01, 0x00, 0x00, 0x00, 0x10, 0x00, 0x00, 0x00,
  0x0c, 0x00, 0x0c, 0x00, 0x0b, 0x00, 0x00, 0x00, 0x00, 0x00, 0x04, 0x00,
  0x0c, 0x00, 0x00, 0x00, 0x09, 0x00, 0x00, 0x00, 0x00, 0x00, 0x00, 0x09
};
const unsigned int g_mysin_model_data_size = 3252;
